{"version":"1.0","truncation":null,"padding":null,"added_tokens":[{"id":0,"content":"<PAD>","single_word":false,"lstrip":false,"rstrip":false,"normalized":false,"special":true},{"id":1,"content":"<UNK>","single_word":false,"lstrip":false,"rstrip":false,"normalized":false,"special":true},{"id":2,"content":"<SOS>","single_word":false,"lstrip":false,"rstrip":false,"normalized":false,"special":true},{"id":3,"content":"<EOS>","single_word":false,"lstrip":false,"rstrip":false,"normalized":false,"special":true}],"normalizer":{"type":"Sequence","normalizers":[{"type":"Strip","strip_left":true,"strip_right":true},{"type":"NFC"}]},"pre_tokenizer":{"type":"Whitespace"},"post_processor":{"type":"TemplateProcessing","single":[{"SpecialToken":{"id":"<SOS>","type_id":0}},{"Sequence":{"id":"A","type_id":0}},{"SpecialToken":{"id":"<EOS>","type_id":0}}],"pair":[{"Sequence":{"id":"A","type_id":0}},{"Sequence":{"id":"B","type_id":1}}],"special_tokens":{"<EOS>":{"id":"<EOS>","ids":[3],"tokens":["<EOS>"]},"<SOS>":{"id":"<SOS>","ids":[2],"tokens":["<SOS>"]}}},"decoder":null,"model":{"type":"BPE","dropout":null,"unk_token":null,"continuing_subword_prefix":null,"end_of_word_suffix":null,"fuse_unk":false,"byte_fallback":false,"vocab":{"<PAD>":0,"<UNK>":1,"<SOS>":2,"<EOS>":3,"&":4,"(":5,")":6,",":7,"-":8,".":9,"/":10,"0":11,"1":12,"2":13,"3":14,"4":15,"5":16,"6":17,"7":18,"8":19,"9":20,":":21,";":22,"?":23,"@":24,"A":25,"B":26,"C":27,"D":28,"E":29,"F":30,"G":31,"H":32,"I":33,"J":34,"K":35,"L":36,"M":37,"N":38,"O":39,"P":40,"Q":41,"R":42,"S":43,"T":44,"U":45,"V":46,"W":47,"Y":48,"_":49,"`":50,"a":51,"b":52,"c":53,"d":54,"e":55,"f":56,"g":57,"h":58,"i":59,"k":60,"l":61,"m":62,"n":63,"o":64,"p":65,"q":66,"r":67,"s":68,"t":69,"u":70,"v":71,"w":72,"x":73,"y":74,"z":75,"’":76,"ar":77,"en":78,"in":79,"at":80,"on":81,"al":82,"ag":83,"ent":84,"ion":85,"ra":86,"or":87,"ed":88,"cal":89,"20":90,"par":91,"oc":92,"202":93,"Wh":94,"_202":95,"doc":96,"ph":97,"agra":98,"paragra":99,"What":100,"docx":101,"paragraph":102,"de":103,"is":104,"of":105,"it":106,"00":107,"dar":108,"endar":109,"calendar":110,"calendar_202":111,"ment":112,"nd":113,"ib":114,"cr":115,"scr":116,"descr":117,"ibed":118,"described":119,"Co":120,"ee":121,"ation":122,"mm":123,"tee":124,"ittee":125,"Comm":126,"Committee":127,"for":128,"ou":129,"form":130,"ev":131,"formation":132,"are":133,"arou":134,"information":135,"ents":136,"ioned":137,"mentioned":138,"events":139,"around":140,"an":141,"ade":142,"ader":143,"09":144,"calader":145,"_2026":146,"calader_2026":147,"calendar_2025":148,"calendar_2024":149,"es":150,"ing":151,"and":152,"age":153,"Man":154,"er":155,"agement":156,"Management":157,"In":158,"14":159,"St":160,"ut":161,"ate":162,"ic":163,"ci":164,"ce":165,"ard":166,"13":167,"um":168,"ec":169,"st":170,"Bo":171,"un":172,"Board":173,"For":174,"Forum":175,"iv":176,"Coun":177,"cil":178,"Council":179,"ning":180,"Su":181,"ional":182,"itut":183,"Inst":184,"itutional":185,"Institutional":186,"Sen":187,"Senate":188,"12":189,"Pl":190,"anning":191,"Planning":192,"ess":193,"ac":194,"Sup":195,"lt":196,"Str":197,"ors":198,"Ex":199,"ult":200,"De":201,"ateg":202,"Strateg":203,"ive":204,"10":205,"UT":206,"ud":207,"RF":208,"utive":209,"ecutive":210,"Executive":211,"CP":212,"Strategic":213,"UTRF":214,"CPUTRF":215,"pl":216,"ance":217,"Fac":218,"ulty":219,"Faculty":220,"us":221,"ig":222,"hi":223,"(@":224,"erv":225,"ity":226,"est":227,"ver":228,"TE":229,"ch":230,"ear":231,"ir":232,"th":233,"Pr":234,"ay":235,"ual":236,"Res":237,"hip":238,"og":239,"Sis":240,"ke":241,"onke":242,"ision":243,"Superv":244,"Sisonke":245,"Supervision":246,"AR":247,"Ment":248,"orship":249,"Mentorship":250,"ramm":251,"Prog":252,"ramme":253,"Programme":254,"ain":255,"ces":256,"Qual":257,"igh":258,"af":259,"Staf":260,"Staff":261,"Ch":262,"Day":263,"ect":264,"el":265,"HO":266,"Stud":267,"Suppl":268,"Chain":269,"Student":270,"Supply":271,"Dir":272,"Wor":273,"am":274,"ans":275,"Deans":276,"ectors":277,"Directors":278,"30":279,"Aud":280,"ol":281,"Audit":282,"ics":283,"27":284,"OF":285,"ho":286,"Ad":287,"Fin":288,"Sci":289,"vest":290,"ences":291,"Invest":292,"Staffing":293,"Finance":294,"Sciences":295,"Investment":296,"ED":297,"Tr":298,"ks":299,"ustee":300,"Works":301,"hop":302,"Trustee":303,"Workshop":304,"AY":305,"DAY":306,"29":307,"Go":308,"nance":309,"vernance":310,"Governance":311,"RM":312,"TERM":313,"18":314,"25":315,"EN":316,"earch":317,"Research":318,"CHO":319,"CED":320,"OL":321,"SCHO":322,"WCED":323,"ession":324,"SCHOOL":325,"ss":326,"ran":327,"ence":328,"SCHOOLS":329,"15":330,"67":331,"min":332,"33":333,"Ris":334,"Risk":335,"ication":336,"Admin":337,"65":338,"Bus":339,"Un":340,"gr":341,"iness":342,"Degr":343,"Business":344,"Degree":345,"17":346,"Wel":347,"19":348,"ETE":349,"Over":350,"SAR":351,"sigh":352,"Quality":353,"ETEC":354,"Oversigh":355,"SARETEC":356,"Oversight":357,"54":358,"69":359,"39":360,"om":361,"si":362,"uation":363,"74":364,"Con":365,"He":366,"Sp":367,"Ass":368,"26":369,"58":370,"70":371,"Eth":372,"Ph":373,"ysi":374,"ang":375,"Ethics":376,"Physi":377,"Physical":378,"16":379,"28":380,"38":381,"Well":382,"34":383,"uity":384,"44":385,"59":386,"24":387,"79":388,"En":389,"ST":390,"Vi":391,"uran":392,"ions":393,"ers":394,"olence":395,"Assuran":396,"Violence":397,"Assurance":398,"50":399,"88":400,"Mee":401,"ting":402,"ter":403,"Meeting":404,"Aw":405,"ary":406,"ign":407,"63":408,"Lang":409,"uage":410,"ous":411,"Language":412,"23":413,"77":414,"High":415,"Session":416,"fication":417,"ification":418,"Qualification":419,"Trustees":420,"Degrees":421,"Higher":422,"Qualifications":423,"76":424,"80":425,"Ac":426,"Ev":427,"Tra":428,"ining":429,"aluation":430,"ART":431,"START":432,"Evaluation":433,"Training":434,"11":435,"90":436,"Gen":437,"ness":438,"ist":439,"END":440,"Wellness":441,"Sub":442,"Em":443,"as":444,"nation":445,"oy":446,"Inter":447,"ploy":448,"Unions":449,"Employ":450,"national":451,"International":452,"45":453,"66":454,"SE":455,"com":456,"Ben":457,"Bas":458,"CL":459,"Des":460,"Eq":461,"Hous":462,"Nam":463,"OP":464,"OSE":465,"RC":466,"SRC":467,"ef":468,"lin":469,"mic":470,"ov":471,"session":472,"atics":473,"onlin":474,"alth":475,"der":476,"its":477,"formatics":478,"ademic":479,"Informatics":480,"ivers":481,"ervic":482,"Administ":483,"Univers":484,"Health":485,"Award":486,"Academic":487,"Gender":488,"Employment":489,"Benef":490,"Based":491,"CLOSE":492,"Design":493,"Equity":494,"Housing":495,"Naming":496,"OPEN":497,"online":498,"Administr":499},"merges":["a r","e n","i n","a t","o n","a l","a g","en t","i on","r a","o r","e d","c al","2 0","p ar","o c","20 2","W h","_ 202","d oc","p h","ag ra","par agra","Wh at","doc x","paragra ph","d e","i s","o f","i t","0 0","d ar","en dar","cal endar","calendar _202","m ent","n d","i b","c r","s cr","de scr","ib ed","descr ibed","C o","e e","at ion","m m","t ee","it tee","Co mm","Comm ittee","f or","o u","for m","e v","form ation","ar e","ar ou","in formation","ent s","ion ed","ment ioned","ev ents","arou nd","a n","a de","ade r","0 9","cal ader","_202 6","calader _2026","calendar_202 5","calendar_202 4","e s","in g","a nd","ag e","M an","e r","age ment","Man agement","I n","1 4","S t","u t","at e","i c","c i","c e","ar d","1 3","u m","e c","s t","B o","u n","Bo ard","F or","For um","i v","Co un","ci l","Coun cil","n ing","S u","ion al","it ut","In st","itut ional","Inst itutional","S en","Sen ate","1 2","P l","an ning","Pl anning","es s","a c","Su p","l t","St r","or s","E x","u lt","D e","ate g","Str ateg","iv e","1 0","U T","u d","R F","ut ive","ec utive","Ex ecutive","C P","Strateg ic","UT RF","CP UTRF","p l","an ce","F ac","ult y","Fac ulty","u s","i g","h i","( @","er v","it y","es t","v er","T E","c h","e ar","i r","t h","P r","a y","u al","R es","hi p","o g","S is","k e","on ke","is ion","Sup erv","Sis onke","Superv ision","A R","M ent","ors hip","Ment orship","ra mm","Pr og","ramm e","Prog ramme","a in","c es","Q ual","ig h","a f","St af","Staf f","C h","D ay","ec t","e l","H O","St ud","Sup pl","Ch ain","Stud ent","Suppl y","D ir","W or","a m","an s","De ans","ect ors","Dir ectors","3 0","A ud","o l","Aud it","ic s","2 7","O F","h o","A d","F in","S ci","v est","en ces","In vest","Staff ing","Fin ance","Sci ences","Invest ment","E D","T r","k s","us tee","Wor ks","ho p","Tr ustee","Works hop","A Y","D AY","2 9","G o","n ance","ver nance","Go vernance","R M","TE RM","1 8","2 5","E N","ear ch","Res earch","C HO","C ED","O L","S CHO","W CED","ess ion","SCHO OL","s s","ra n","en ce","SCHOOL S","1 5","6 7","m in","3 3","R is","Ris k","ic ation","Ad min","6 5","B us","U n","g r","in ess","De gr","Bus iness","Degr ee","1 7","W el","1 9","E TE","O ver","S AR","s igh","Qual ity","ETE C","Over sigh","SAR ETEC","Oversigh t","5 4","6 9","3 9","o m","s i","u ation","7 4","C on","H e","S p","A ss","2 6","5 8","7 0","E th","P h","y si","an g","Eth ics","Ph ysi","Physi cal","1 6","2 8","3 8","Wel l","3 4","u ity","4 4","5 9","2 4","7 9","E n","S T","V i","u ran","ion s","er s","ol ence","Ass uran","Vi olence","Assuran ce","5 0","8 8","M ee","t ing","t er","Mee ting","A w","ar y","ig n","6 3","L ang","u age","ou s","Lang uage","2 3","7 7","H igh","S ession","f ication","i fication","Qual ification","Trustee s","Degree s","High er","Qualification s","7 6","8 0","A c","E v","T ra","in ing","al uation","AR T","ST ART","Ev aluation","Tra ining","1 1","9 0","G en","n ess","is t","EN D","Well ness","Su b","E m","a s","n ation","o y","In ter","pl oy","Un ions","Em ploy","nation al","Inter national","4 5","6 6","S E","c om","B en","B as","C L","D es","E q","H ous","N am","O P","O SE","R C","S RC","e f","l in","m ic","o v","s ession","at ics","on lin","al th","de r","it s","form atics","ade mic","In formatics","iv ers","erv ic","Admin ist","Un ivers","He alth","Aw ard","Ac ademic","Gen der","Employ ment","Ben ef","Bas ed","CL OSE","Des ign","Eq uity","Hous ing","Nam ing","OP EN","onlin e","Administ r"]}}